<s>
<e>
<unk>
,
.
the
in
of
and
die
der
to
und
a
is
that
zu
for
den
von
ist
on
für
an
mit
with
(
das
The
)
be
are
auf
des
as
I
-
eine
this
Sie
im
:
it
es
nicht
werden
&quot;
we
ein
by
have
dass
dem
sich
not
Die
you
wir
will
auch
which
or
at
from
was
sind
wird
has
als
um
In
s
ich
can
oder
all
our
also
haben
über
European
-@@
so
einer
/
hat
!
?
sie
&apos;
wie
einen
er
zur
Das
aus
bei
Union
your
&apos;s
its
Ich
können
–
We
but
am
one
would
more
einem
’
their
been
nach
This
zum
It
Wir
diese
uns
nur
un@@
durch
should
kann
Mr
Der
de
;
dieser
do
very
Commission
must
...
Es
vor
er@@
us
daß
they
Kommission
there
noch
new
“
wurde
other
time
ver@@
only
like
EU
an@@
aber
about
re@@
Hotel
Herr
man
wenn
S@@
sehr
sein
müssen
President
t
these
in@@
i
up
who
e
o
war
en
B@@
no
ten
diesem
k@@
te
P@@
en@@
if
A
ge@@
alle
s@@
out
mehr
%
any
Europäischen
Europe
T@@
A@@
into
were
people
2
t@@
Parliament
bis
möchte
G@@
K@@
such
eines
1
ab@@
what
D@@
use
States
d@@
C@@
than
H@@
countries
report
be@@
my
Member
vom
need
ihre
when
his
some
most
Präsident
well
gibt
M@@
p@@
e@@
now
F@@
hotel
first
unter
sowie
work
dieses
E@@
b@@
make
them
Council
many
f@@
important
L@@
m
N@@
between
ing
o@@
y
way
hier
g@@
n@@
m@@
system
z@@
take
because
zwischen
able
3
c@@
da
ein@@
muss
An@@
W@@
Bericht
keine
„
unsere
he
al@@
Ver@@
made
information
Ihnen
Parlament
ch@@
years
just
R@@
If
had
support
anderen
two
&#91;
over
y@@
&#93;
world
d
those
Mitgliedstaaten
where
O@@
Wenn
Europa
u@@
immer
”
dies
li@@
policy
dann
i@@
me
being
ed
aus@@
Im
st@@
sch@@
ter
di@@
de@@
v@@
may
diesen
V@@
gegen
end
damit
even
a@@
wurden
Ab@@
Diese
good
5
see
4
al
ent@@
right
Frau
year
order
ers
Zeit
area
l@@
Ihre
unserer
gen
here
habe
ti@@
ung
part
place
ar@@
You
seine
same
market
jedoch
h@@
sondern
l
k
le
after
I@@
Europäische
through
el@@
ts
possible
neue
10
As
ation
j@@
political
own
&amp;
Menschen
heute
There
could
si@@
used
Jahr
then
economic
For
development
want
ri@@
Sch@@
within
J@@
.@@
Be@@
bereits
r@@
or@@
ro@@
rights
ate
how
auf@@
both
Z@@
Ein@@
finden
against
find
mich
sollte
europäischen
much
international
therefore
Jahren
ihrer
neuen
denen
ge
zu@@
ohne
under
does
andere
le@@
vor@@
country
point
g
on@@
room
public
es@@
at@@
Rat
um@@
zwei
without
sollten
Entwicklung
free
Frage
service
last
services
number
great
machen
Re@@
allen
ganz
ra@@
still
bietet
available
w@@
geht
n
Mit
different
liegt
fact
say
Aus@@
view
social
viele
Ein
In@@
ungs@@
ungen
set
la
u
course
Welt
already
Unternehmen
6
se
before
future
believe
dazu
too
get
That
el
know
weil
today
jetzt
p
wieder
products
U@@
sten
20
30
über@@
But
denn
seiner
3@@
per
cannot
te@@
case
c
Er@@
think
Informationen
2009
Lage
city
th@@
darauf
dis@@
process
her
go
Bereich
data
offers
am@@
level
einige
day
ar
Maßnahmen
em@@
schon
dafür
selbst
tes
ern
human
So
rooms
Commissioner
quality
situation
during
geben
financial
Vor@@
ihren
Jahre
ihr
b
best
ated
x
national
z
Herrn
high
bin
sagen
issue
Eine
Al@@
Dies
said
example
mir
Arbeit
viel
debate
st
et
lo@@
allem
means
every
ob
7
small
ab
question
ch
würde
Our
gut
including
meine
sp@@
proposal
ale
However
since
et@@
help
stehen
All
wollen
enden
ens
business
Land
unseren
e-@@
each
ische
Für
S
op@@
form
stellen
access
offer
long
problem
Und
ins
China
ste
kommen
bar
la@@
is@@
8
Zimmer
it@@
etwas
clear
während
position
h
wo
particular
ad@@
Länder
nun
Wie
ischen
se@@
lassen
waren
möglich
areas
doch
give
next
few
15
ter@@
con@@
measures
common
provide
agreement
liche
2@@
Committee
Un@@
co@@
based
put
St@@
im@@
seit
energy
x@@
taken
4@@
On
citizens
2010
large
insbesondere
Art
ent
�
ensure
back
steht
again
systems
sehen
ger
erhalten
three
come
Unterstützung
ersten
vi@@
C
Rahmen
&#124;
further
problems
security
r
company
change
Ländern
far
der@@
Internet
Zusammenarbeit
politischen
while
2008
Parlaments
50
Teil
ber@@
using
necessary
ur@@
du
f
ma@@
beim
why
given
located
however
T
shall
ende
stay
besteht
To
Fall
vote
Y@@
soll
life
Vorschlag
With
ert
ke
ta@@
eren
They
us@@
X@@
cooperation
tun
einfach
Con@@
group
needs
lich
ting
Bei
always
real
down
At
Stadt
Group
And
os
seinen
ating
lichen
law
Fragen
wichtig
gen@@
ap@@
ja
deren
Problem
drei
einmal
hope
wäre
USA
as@@
United
Ziel
letzten
Namen
ag@@
main
dabei
action
12
less
km
better
unter@@
Bürger
sk@@
What
around
EU-@@
men
House
Kollegen
ler
ck@@
große
5@@
ted
power
working
qu@@
großen
ac@@
did
worden
D
protection
bringen
land
po@@
ly
Daten
System
Was
Mar@@
ten@@
Recht
Auf
Verfügung
production
weiter
Er
programme
Ihr
ger@@
current
zi@@
welche
special
full
Seite
Bedeutung
These
Community
become
au@@
ant
legal
Aber
E
US
Sicherheit
Auch
When
centre
ic
to@@
terms
present
ations
together
Möglichkeit
whether
trade
particularly
open
bi@@
wissen
9
another
sh@@
chen
18@@
ol@@
page
pro@@
gehen
eigenen
-S@@
children
em
Nach
bieten
management
old
result
basis
Regierung
Als
Ar@@
*
ei@@
Mrs
100
ul@@
muß
que
region
site
gi@@
conditions
2007
Thema
é@@
issues
B
les
davon
könnte
alles
daher
Probleme
aller
ine
state
companies
om@@
kein
stellt
ne
pre@@
ings
darüber
experience
line
weitere
ak@@
ser@@
Kunden
Staaten
befindet
certain
führen
Weise
sen
control
O
close
Kommissar
ne@@
water
sowohl
Politik
second
6@@
women
Ihrer
role
ates
various
erreichen
2000
especially
her@@
location
industry
whole
modern
German
mo@@
sector
besonders
really
Euro
Ende
Ro@@
hatte
ie
ges
matter
government
done
meiner
making
Zukunft
health
local
look
25
private
wirklich
ous
account
7@@
Service
unterstützen
unser
Beispiel
+
ihnen
Mo@@
budget
natürlich
create
entfernt
name
innerhalb
verschiedenen
schen
age
specific
global
inter@@
Ge@@
vielen
staff
ere
Germany
sen@@
respect
gegenüber
ci@@
erte
research
days
ds
P
going
che
Rolle
Richtlinie
major
den@@
di
hand
software
19@@
tra@@
Weg
ze
internationalen
million
möchten
kommt
2006
bo@@
_
tions
00
list
zwar
fully
something
ken
Ihren
project
several
Bo@@
away
itself
politische
continue
Frauen
8@@
ä@@
start
Co@@
direkt
da@@
no@@
est
rapporteur
resolution
dort
t-@@
ve
crisis
europäische
Hotels
Tag
hi@@
often
000
ask
Seiten
excellent
so@@
erste
range
man@@
Auf@@
ding
EUR
regard
wish
ans
gentlemen
Ma@@
ing@@
Alle
Hier
least
New
mi@@
a-@@
general
Um
transport
single
Pro@@
He
off
me@@
following
stand
per@@
rules
price
isch
welcome
third
food
growth
personal
money
ex@@
Le@@
9@@
directive
red
Programm
little
once
Artikel
environment
Meinung
found
side
tri@@
arbeiten
online
field
ts@@
subject
Uhr
par@@
M
11
ko@@
towards
De@@
beiden
until
Lösung
product
things
institutions
customers
Situation
Über@@
unserem
nehmen
gesagt
En@@
No
pro
World
fast
ir@@
Madam
F
ut@@
wei@@
Region
ha@@
Fraktion
Zu@@
Dieses
Zusammenhang
increase
individual
Di@@
him
res
town
weniger
version
est@@
thank
standards
family
opportunity
erten
ob@@
design
Hilfe
ber
Produkte
fen
®
Treaty
40
Ex@@
los
del
building
L
rather
&apos;t
positive
y-@@
let
quite
activities
su@@
home
Präsidentin
technology
Mittel
elle
Par@@
call
Arbeits@@
approach
re
Sp@@
jeder
ca
interest
2005
provided
Leben
bitte
th
gilt
resources
Deshalb
value
ster
un
daran
nen
light
Haus
rate
aid
.com
forward
yet
economy
fi@@
via
wi@@
do@@
sogar
etwa
schaffen
R
Software
X
period
ce
ens@@
An
solution
bzw.
Grund
Members
members
agree
September
might
include
key
zen
Millionen
having
macht
Th@@
Se@@
Um@@
ou@@
hinaus
taking
dessen
halten
gemacht
ot@@
ors
Europas
alen
indem
decision
times
International
among
ladies
art
minutes
Schutz
After
State
d-@@
points
costs
ur
due
proposals
ally
allow
play
ö@@
nämlich
gt
One
amendments
len
text
24
sti@@
18
Unsere
Dieser
content
gra@@
Deutschland
14
framework
safety
2004
ho@@
Kinder
ebenfalls
erung
ung@@
words
Unter@@
reason
fer@@
v
ihn
makes
il@@
einigen
ü@@
ator
enjoy
progress
called
website
w
adopted
TV
ben
show
seinem
0@@
brauchen
ons
ati@@
all@@
ses
gute
ene
sicher
ec@@
Mon@@
&apos;@@
unterstützt
mit@@
provides
left
effective
difficult
station
Kon@@
ihm
air
16
sche
others
ischer
darf
Rates
Website
politik
projects
easy
Punkt
legislation
Aussprache
Personen
ach@@
views
opinion
é
darin
Form
ka
results
favour
mon@@
above
application
gu@@
Qualität
known
contact
ra
for@@
responsibility
öffentlichen
Finanz@@
du@@
groups
attention
policies
Berlin
ali@@
simply
pi@@
Restaurant
addition
beautiful
non-@@
concerned
gerade
dürfen
tu@@
questions
short
Da
meisten
glaube
behalf
led
EN
nationalen
je
G
over@@
ideal
2003
Ch@@
Bar@@
com@@
genau
Po@@
Wirtschaft
jeden
ves
nichts
Abstimmung
ß@@
mer@@
pe@@
importance
ni@@
Li@@
keinen
house
car@@
sollen
ihrem
society
and@@
complete
gh@@
ru@@
recht
strategy
Gemeinschaft
Haupt@@
she
setzen
cultural
ker
ment
greater
end@@
Rechte
handelt
ia
bu@@
weiterhin
hin@@
ep@@
sea
zusammen
sa@@
Grund@@
klar
zurück@@
training
environmental
kind
13
Ebene
betrifft
nach@@
Inter@@
Ort
ange@@
he@@
sei
statt
natural
along
ago
ig@@
weit
required
á@@
wer@@
principle
La
heart
step
bedeutet
Ad@@
findet
pages
wichtige
recent
sure
durch@@
Bezug
ellen
€
würden
eb@@
breakfast
kon@@
bereich
nutzen
besten
solche
Rechts@@
under@@
meeting
Or@@
besser
min@@
deal
century
fall
führt
deshalb
schnell
Gesellschaft
Lo@@
wide
Her@@
war@@
ma
deutlich
clearly
address
authorities
ic@@
tion
2001
November
technical
Zugang
ability
aufgrund
gel@@
user
tern
K
men@@
ches
Dank
go@@
Von
gehört
Kosten
etc
sub@@
achieve
solutions
erst
Russia
Richtung
alten
nächsten
enough
plan
directly
past
up@@
10@@
employment
ed@@
hin
needed
pool
facilities
essential
lot
standard
bekannt
ty
serious
ran@@
car
IT
Markt
months
thing
feel
ise
person
nature
bring
developed
allerdings
60
av@@
history
Nähe
related
guests
Ansicht
risk
currently
Please
responsible
Aus
ging
restaurant
proposed
N
Umsetzung
longer
1@@
markets
Ent@@
events
eln
ft
ary
Menschenrechte
vo@@
April
central
visit
requirements
lange
live
ded
tre@@
interests
hei@@
bel@@
tige
Lu@@
ters
ms
Rück@@
comes
cht
parties
bar@@
From
near
Windows
internal
works
voll
comfortable
licher
Ziele
$
language
ina
beispielsweise
top
son
Bau@@
Vertrag
hoffe
night
please
eller
themselves
Verfahren
Verantwortung
V
Version
Car@@
gestellt
2002
ets
team
werde
regions
young
Bedingungen
Gu@@
involved
0
efforts
ff@@
Am
extremely
democracy
voted
‘
ell@@
mar@@
ver
changes
competition
Durch
total
GmbH
regulation
notwendig
ta
verwendet
Anwendung
strong
never
implementation
friendly
vielleicht
Interesse
cases
Demokratie
sch
keep
ell
kleinen
gemeinsamen
Ihrem
Vorschläge
ck
Haushalts@@
ziehen
held
force
four
Neu@@
Grundlage
Man
network
Reihe
ER
Geschichte
gung
Daher
freedom
Gra@@
peace
gesch@@
Herren
Gebiet
upon
17@@
20@@
Möglichkeiten
event
bleiben
erreicht
Tra@@
though
ad
Doch
wirtschaftlichen
situated
democratic
pa@@
sprechen
France
file
regional
sozialen
prices
gegeben
ren@@
zeigt
..
care
either
könnten
17
negotiations
material
rates
ausge@@
space
Sicherheits@@
developing
Debatte
bed
Institutionen
created
ure
AG
wenig
Man@@
liches
consider
unique
true
education
dar
ph@@
oft
looking
pay
80
music
eh@@
seen
everything
Tri@@
share
almost
states
500
Ri@@
Bi@@
big
request
tischen
thus
beach
tigen
tion@@
ling
verschiedene
vier
funds
mu@@
Pi@@
Strategie
reform
success
improve
early
book
ner
spielen
är@@
1.@@
verfügt
Bank
designed
additional
Dis@@
ie@@
parts
liegen
meet
ster@@
fundamental
climate
sion
road
ari@@
try
cost
à
dern
date
ative
foreign
according
effect
Auswirkungen
200
famous
form@@
bei@@
ermöglicht
Damen
ern@@
type
American
soon
Minuten
lu@@
besch@@
lei@@
tive
hard
links
card
s-@@
term
Dienstleistungen
mal
gemeinsame
weltweit
included
Qu@@
actually
send
Wirtschafts@@
unternehmen
gs
helfen
Berichterstatter
idea
enen
Abkommen
hatten
danken
receive
later
www.@@
French
lin@@
Park
Israel
Presidency
Su@@
act
test
understand
aten
ah@@
tragen
ER@@
living
tung
bus
ven@@
lead
pl@@
Zu
turn
accept
sc@@
erforderlich
Paris
capital
tan@@
direct
program
tic
1999
Verhandlungen
Hinblick
takes
wegen
Mitglieder
Programme
appropriate
low
center
outside
Wasser@@
geb@@
workers
fe
mentioned
Tatsache
AN@@
gesamten
mis@@
Regionen
bereit
users
Ber@@
tax
Geschäfts@@
investment
San
»
ass@@
features
ebenso
ways
mer
lan@@
cher
Ko@@
entwickelt
Zentrum
Außerdem
einzelnen
Gruppe
fragen
How
reach
ori@@
IN@@
tet
amount
table
Cor@@
run
procedure
Liste
leben
Schritt
hours
denke
wa@@
Nach@@
weiteren
doing
internationale
Y
week
majority
ance
gebracht
va
took
darum
Kolleginnen
í@@
16@@
ard
ever
communication
chten
Ergebnis
Entscheidung
throughout
gleichen
By
ieren
lässt
active
hätte
19
across
guarantee
jedem
konnte
Bereichen
significant
certainly
wor@@
traditional
Ho@@
ationen
connection
final
Änderungsanträge
legen
aware
Vereinigten
existing
Antwort
Platz
…
writing
befinden
gel
-B@@
perfect
Krise
Blick
ing-@@
sed
America
kt
Änderungsantrag
Erfolg
Turkey
Beziehungen
relations
board
Ta@@
media
Bevölkerung
context
performance
concerns
Com@@
gab
leading
Sa@@
gleichzeitig
geführt
15@@
gn@@
member
AT@@
br@@
stage
original
fahren
initiative
wichtigen
gemeinsam
customer
ments
Preis
weiß
knowledge
cu@@
My
zeigen
military
jede
cks
impact
ente
walk
Seit
body
add
So@@
ges@@
population
programmes
Bar
21
Rei@@
five
moment
built
wohl
game
&gt;
bekommen
kleine
apply
Ausdruck
heißt
Per@@
Unser
professional
although
Abgeordneten
Geld
Pre@@
bleibt
Ne@@
rec@@
Bu@@
Aufgabe
ents
ben@@
Japan
completely
tische
z.B.
Verbindung
IS@@
Türkei
tor
au
ders
2.@@
nothing
gern
Mit@@
established
Minister
reasons
ties
committee
=
code
includes
bare
community
Zum
verbunden
zeit
Government
decisions
read
equipped
fo@@
allows
Einsatz
Mal
remain
fe@@
concerning
agreements
Mor@@
Since
ys
basic
stra@@
Kontrolle
ender
meinen
II
ast@@
style
baren
culture
AR@@
Förderung
lichkeit
70
kl@@
unseres
English
enthalten
London
iert
practice
gestimmt
choice
enn@@
jobs
Projekt
sense
front
und@@
Q@@
ana
Kar@@
Verordnung
partners
ry
Court
fer
eu@@
22
model
tz@@
EN@@
No@@
neu
Forschung
internet
out@@
des@@
party
Vi@@
Ru@@
tr@@
kan@@
Jahres
web
ats
holiday
files
For@@
values
W
Do@@
demand
Damit
Lösungen
received
hand@@
IC@@
simple
Wei@@
auszu@@
einge@@
ity
develop
ba@@
Information
package
applications
jedes
ums
face
integration
Let
il
Partner
equipment
stop
fest@@
potential
Erweiterung
August
objectives
ones
entire
Behörden
Bitte
els
ales
richtig
wichtigsten
Entschließung
regarding
move
gerne
don
cor@@
dar@@
ES
Iran
o-@@
Beitrag
function
Lisbon
quickly
below
IT@@
park
benefit
bit
Nutzung
ST@@
rund
mehrere
gleich
Here
focus
fight
nice
aim
det
agricultural
12@@
concern
90
eg@@
Ausschuss
fin@@
East
successful
fest
reports
hinsichtlich
image
zurück
pp@@
mp@@
er-@@
objective
ganze
27
derzeit
enthält
cken
eigene
Russland
treatment
ven
check
ganzen
co
euro
goods
seems
South
ermöglichen
contains
return
einzu@@
AL@@
lose
kte
genommen
May
Landes
neben
Verbesserung
recently
wobei
governments
hotels
achieved
Vor
press
dy
Finally
ann@@
Au@@
ces
al-@@
tig
size
indeed
ks
Ausschusses
AS@@
en-@@
levels
Text
Umwelt@@
mind
{
series
versch@@
«
guest
mean
coming
Ergebnisse
June
Verbraucher
mat@@
Du@@
beginning
fair
National
prevent
rest
huge
Angebot
än@@
weise
added
Central
gar
str@@
isches
job
ste@@
increased
hal@@
23
computer
tungs@@
keyword
places
Gelegenheit
clean
Woche
völlig
Wort
lack
everyone
verfahren
ban@@
Design
answer
Schaffung
presented
verbessern
zusammen@@
Me@@
re-@@
RE@@
id
sites
Darüber
mm
Verwendung
dialogue
anderer
enter
14@@
Initiative
office
wirtschaftliche
Land@@
closed
cht@@
Some
floor
reviews
fördern
ier@@
consumers
note
Regierungen
Mitarbeiter
lang
eri@@
agreed
guten
entwickeln
shows
berg
großer
verwenden
relevant
highly
higher
ss@@
asked
anzu@@
Affairs
Mi@@
verfügen
balance
ship
E-@@
lage
ES@@
PC
tur@@
direction
land@@
gehören
choose
sustainable
Ukraine
ub@@
dr@@
carried
ving
sis
enable
complex
ang
ändern
lines
soziale
Interessen
La@@
nuclear
Team
fünf
H
chte
half
bestehen
rich
später
Bild
falls
sing
Familie
whose
Notwendigkeit
amendment
gas
commitment
res@@
ps
Wert
Welt@@
considered
effects
Now
Therefore
nimmt
principles
sorgen
Zeitpunkt
suchen
Themen
shown
Server
net
Änderungen
inc@@
comp@@
innovative
travel
perhaps
Spiel@@
300
Frankreich
maßnahmen
ore
nie
meinem
zunächst
13@@
server
City
EL@@
eng@@
col@@
latest
Markt@@
Management
tatsächlich
Barcelona
materials
Tage
pres@@
possibility
Erfahrung
scher
Hand@@
dra@@
setting
Web@@
Of
EC@@
Während
matters
Organisation
programm
ant@@
ano
har@@
Gesundheit
ton
Kultur
Auswahl
tete
former
Nor@@
thanks
Person
fre@@
sta@@
forms
treffen
ro
tiger
}
Herzen
details
UN@@
enz@@
angenommen
He@@
ist@@
tieren
Umgebung
Dabei
opportunities
easily
ess
came
behind
Mai
ski
video
Anfang
previous
First
double
popular
Spain
accommodation
sto@@
weiter@@
increasing
status
actions
pressure
Fahr@@
Fach@@
fallen
reduce
schriftlich
0.@@
AC@@
promote
speak
aspects
stark
response
verstehen
ations@@
lediglich
atmosphere
search
hohen
reached
ak
anti@@
ser
bisher
ying
partner
tim@@
pf@@
prepared
ort
providing
capacity
tel@@
remains
—
Mitglied
ino
äußerst
Einführung
innen
Steuer@@
creation
Africa
joint
Kampf
Juni
gesamte
genden
safe
Article
Ba@@
ism
sound
Anzahl
exchange
Meer
ies
ssen
Aktivitäten
billion
external
efficient
oil
submitted
je@@
Bel@@
produced
somit
Umwelt
British
Am@@
Italy
Bei@@
bringt
Also
bank
Museum
the@@
commercial
limited
charge
bestimmte
tiert
Wachstum
Sprache
por@@
Wahl
summer
sts
gewährleisten
gemäß
tliche
industrial
Gäste
link
gten
supply
ation@@
ese
Prozess
gives
uses
00@@
Systems
versuchen
ful
met@@
lies
protect
Wasser
obwohl
Integration
decided
ve@@
stre@@
gesetzt
kten
funding
supported
voll@@
mann
emp@@
Produktion
scheint
US-@@
priority
December
fordern
ll@@
sur@@
halte
cause
Hand
P-@@
leave
Amsterdam
Lei@@
Convention
Hoch@@
follow
fu@@
bestimmten
property
Por@@
gre@@
Lebens@@
Raum
island
Zahl
Daten@@
Dinge
Preise
restaurants
Western
enlargement
independent
can@@
Kur@@
Kommissarin
stri@@
El@@
ler@@
Bekämpfung
ess@@
zahlreiche
35
Go@@
Fortschritte
tungen
we@@
produce
enten
Te@@
ther@@
civil
Insel
ade
largest
gro@@
Euro@@
pri@@
zweite
Natur
bad
organisation
To@@
similar
Industrie
Erachtens
word
option
hohe
S-@@
systeme
consumer
leicht
structure
ence
erster
assistance
ili@@
ators
ausgestattet
bre@@
meines
CO@@
gl@@
möglichkeiten
Funktion
instrument
Jo@@
zer@@
mobile
York
größten
einschließlich
heit
Spiel
bau@@
hr@@
aufge@@
Entwicklungs@@
steps
1998
creating
movement
Gen@@
iz@@
comm@@
Services
frei
lau@@
sel@@
außerdem
teile
apartment
ines
setzt
Jahrhundert
Bestimmungen
solchen
Erklärung
Einzel@@
platz
Position
pleased
March
our@@
January
Web
Dezember
lagen
Stelle
weisen
insgesamt
UN
variety
brought
rule
sive
dadurch
regulations
sagte
führung
construction
Ha@@
General
Sozial@@
airport
j
fl@@
source
len@@
einzige
credit
hoch@@
weder
Handel
Gar@@
mel@@
vergangenen
War@@
mein
bri@@
Pa@@
af@@
conference
purpose
Pal@@
ok@@
October
Dialog
ourselves
tem
zweiten
written
Today
ktion
message
Nur
,000
activity
stability
Booking.com
van
Mehrheit
sm@@
ble
started
aufgenommen
verb@@
discussion
ground
became
Gi@@
instruments
instead
ó@@
kt@@
leider
zei@@
wer
Gewalt
distance
Linux
Anforderungen
are@@
Entscheidungen
U
paid
kosten
Investitionen
Sal@@
film
Küche
Stunden
relation
Strand
distribution
study
Punkte
sieht
interesting
ären
Vorschriften
click
Kosovo
23@@
aler
genießen
section
mittel
Aufmerksamkeit
ß
allowed
geschlossen
März
Gefahr
sent
document
Gästebewertungen
ev@@
Party
4.@@
fishing
leisten
aufzu@@
giving
une
West@@
Energie
Projekte
ju@@
St.
sei@@
tool
vol@@
agenda
Grenzen
ite
kre@@
Ste@@
Republic
pass
tell
legislative
bezüglich
statement
Macht
regards
Club
quiet
compromise
gar@@
bevor
с@@
payment
benefits
schließlich
Bereiche
base
concept
effort
lung
ness
Center
Development
procedures
Handels@@
werk
During
Villa
growing
konnten
North
DE
school
Freiheit
tors
violence
eingesetzt
damage
neuer
aktuellen
village
Folgen
gelten
weg
ou
wenige
bes@@
Many
contribution
Italian
historical
Mal@@
July
26
operation
Chi@@
stell@@
eigentlich
extra
self-@@
größte
require
CD
Wettbewerb
log@@
Regeln
item
Ni@@
drive
OS
operating
fra@@
Spanish
Landwirtschaft
zed
documents
Anfrage
wichtiger
abzu@@
digital
28
Frühstück
benötigen
integrated
gende
sports
provisions
tools
Beschäftigung
gleich@@
met
schaft
enti@@
Rights
download
durchgeführt
Meine
Firma
Bad
treten
task
lic@@
types
Oktober
Reform
zehn
build
teilen
criteria
45
kannst
Portugal
class
dung
1.
Linie
Zur
happy
Standpunkt
box
Präsidenten
Bildung
Höhe
Br@@
europäischer
ll
changed
Business
forces
Du
Diskussion
erwarten
1,@@
wählen
mal@@
immediately
alternative
Januar
Nationen
Site
got
express
nor
assi@@
University
ris@@
Although
Ti@@
sions
Groß@@
star@@
ill@@
genannten
Sk@@
six
challenges
allein
ality
kurz
goes
official
zone
Heute
hinter
highest
Musik
draft
elements
fa@@
apartments
getan
equal
era
late
IS
yer
chen@@
Your
erungs@@
Gemeinschafts@@
eher
ihres
San@@
employees
Centre
West
parking
gr@@
tro@@
Berichts
Si@@
na
angesichts
sofort
app@@
transparency
bau
helpful
avoid
Furthermore
ik
round
Gründen
Ju@@
sor@@
Fehler
Flug@@
Transparenz
friends
Wel@@
rise
Sache
reading
Op@@
train
Sinne
öffentliche
Personal
bra@@
Ger@@
analysis
erneut
yp@@
daily
alte
Bemühungen
nahe
zwei@@
lower
processes
tel
applied
Öffentlichkeit
begrüße
offering
Ansatz
numerous
bl@@
Ser@@
tsch@@
1997
pr@@
reality
finally
ga
consequences
elections
Luft@@
bathroom
bel
RO@@
Schlusselwortern
Präsidentschaft
az@@
Auffassung
Ben@@
Ra@@
eben
Gr@@
trans@@
historic
geworden
review
ör@@
poverty
Bilder
Besch@@
requires
Flughafen
za
gefunden
speed
Wi@@
talk
5.@@
conflict
See
MP@@
beitragen
stellung
Kraft
tt@@
vel@@
king
efficiency
labour
lives
sting
beyond
star
morgen
offered
lernen
ismus
Urlaub
AD@@
solidarity
hält
Kinder@@
son@@
ya
sport
entsprechenden
diejenigen
Restaurants
modified
colleagues
Verkehrs@@
sum@@
Fällen
death
saying
Ober@@
Room
tlich
freien
persons
verhindern
expect
ini
@
Do
Dateien
Juli
medi@@
volle
wine
Bal@@
poor
gender
bur@@
behandelt
ideas
ini@@
tlichen
Druck
paar
pu@@
Natürlich
Monaten
Kor@@
fine
fol@@
implemented
wanted
minimum
Tor@@
useful
Tur@@
sted
bs
practical
published
ständig
draw
hätten
Even
clients
con
phone
Mediterranean
shopping
erfolgt
ron@@
ßen
vers@@
stimmen
dan@@
terrorism
establish
geh@@
congratulate
illegal
sektor
entsprechend
Tre@@
starting
Tagen
crucial
fil@@
Atmosphäre
learn
Debian
Bürgern
stands
news
tomorrow
WTO
carry
Basis
kennen
secure
cs
berücksichtigt
weeks
sales
richtige
Behandlung
technologies
Hotel@@
ment@@
­
Tagesordnung
OR@@
comprehensive
Fi@@
Har@@
vergessen
tik@@
sal@@
Gesundheits@@
wieder@@
Austria
transfer
ce@@
Tat
player
Sport@@
Energie@@
ide@@
mm@@
lesen
Staats@@
While
warum
Den
Dar@@
anderem
Vo@@
besondere
organisations
rä@@
hoch
Preis@@
technischen
Mittel@@
prä@@
Selbst@@
minute
Min@@
reduction
options
acc@@
modernen
ably
monitoring
folgen
port
sometimes
ement
maximum
versucht
machine
frage
Microsoft
LE@@
deutschen
A-@@
lin
head
ke@@
Bürgerinnen
win@@
Bundes@@
3.@@
oben
ff
Unter
vertreten
reference
amp@@
leaders
pan@@
morning
zahlen
hold
Änderung
denken
plant
Bri@@
Italien
Stadt@@
überhaupt
probably
worldwide
voting
inn@@
players
Nr.
caused
anything
Lissabon
tn@@
Lassen
Fu@@
Amendment
ord@@
schließen
Le
lie@@
begin
games
Republik
challenge
alone
Is
Chinese
verantwortlich
month
historischen
street
Viele
flo@@
Gro@@
Sicht
ut
Beginn
anders
Ban@@
beste
email
pen@@
gesehen
interested
Mag@@
raum
Forschungs@@
Aufenthalt
gew@@
ga@@
erklärt
kti@@
Ressourcen
B.
annual
cities
Spanien
häufig
sches
erfolgreich
plans
Fest@@
lösen
reichen
Vergangenheit
neues
Finanzierung
ür@@
RA@@
barkeit
ready
200@@
cut
Rechtsvorschriften
long-term
gewesen
chance
Konferenz
vollständig
ages
wal@@
languages
zahlreichen
Technologie
erwartet
ktionen
I-@@
mountain
Datei
stelle
Wochen
thought
waste
zer
bin@@
jeweiligen
welches
Kultur@@
sa
child
Dr.
erfüllen
Zweitens
farmers
IM@@
banks
Airport
Fe@@
#
Wahl@@
2-@@
äre
ette
Gruppen
wahrscheinlich
Fre@@
erungen
Erfahrungen
unten
braucht
release
leg@@
cur@@
ously
1996
Thank
Moreover
lost
1-@@
Produkt@@
Fund
worked
ungsp@@
selection
´
ien
Ku@@
garden
Schritte
extent
EC
ture
kam
geschaffen
FR
jo@@
methods
on-@@
ich@@
ET@@
ics
ss
Vertrauen
una
scientific
Inhalt
zumindest
relating
Werte
Conference
31
ada
accession
businesses
stets
Lin@@
accordance
endlich
green
genutzt
advantage
schützen
method
mention
images
walking
ier
verpflichtet
sectors
ulation
genug
Hei@@
comfort
Cas@@
strategic
tor@@
Natur@@
ack@@
Aspekte
cre@@
32
teten
außerhalb
Herausforderungen
ai@@
Kunst@@
Wein@@
sol@@
powers
folgt
edi@@
fields
Mat@@
gend
despite
danke
lat@@
processing
Directive
gan@@
Not
Berg@@
erter
san@@
Sti@@
Einige
influence
Allerdings
fahr@@
hol@@
legt
5-@@
heutigen
bet@@
hören
gte
tics
fish
Russian
seines
Angelegenheit
Dazu
privaten
abge@@
US@@
letzte
menu
Kunden@@
visitors
raised
loss
neu@@
Wohn@@
Benutzer
innovation
Ireland
amerikanischen
persönlichen
motion
alt
Security
fac@@
cally
25@@
mes
del@@
Only
flexible
vollen
ology
separate
Im@@
wert
Gebäude
Mu@@
hen
doubt
erlaubt
wing
senden
Pri@@
Public
trying
Parteien
bessere
Schwierigkeiten
75
trotz
è@@
Obwohl
accepted
implement
Berichterstatterin
ir
absolutely
join
Google
gest@@
od@@
Falls
sechs
regime
ausschließlich
Star
zation
Staat
Spieler
post@@
Sonder@@
map
™
bilden
Col@@
demands
Ap@@
justice
ole
Neben
Bur@@
folgenden
°
deten
Arbeitnehmer
Gesamt@@
Hinsicht
scope
Ur@@
alität
Secondly
overall
moderne
Dann
Gegen@@
UK
Wer
critical
borders
schwer
affected
cra@@
²
negative
Milliarden
placed
enz
Ihres
tal@@
demokratischen
Einrichtung
Folge
Bre@@
cover
More
verkehr
Praxis
oren
Krieg
ns
swimming
contract
Vertreter
yourself
Prozent
länder
ast
übernehmen
entscheiden
intended
gekommen
Free
laufen
cli@@
ls
e-mail
zudem
getting
Its
usually
running
gang
wo@@
bitten
Denn
automatisch
Ac@@
Wunsch
SP@@
Z
EM@@
Angelegenheiten
Arbeitsplätze
и@@
beide
uri@@
Grand
erinnern
Computer
richten
anti-@@
ki@@
heard
Opfer
Instrument
target
calls
suitable
love
Indeed
30@@
Aufgaben
bewusst
Afghanistan
generation
aff@@
reforms
Red
rel@@
Station
begrüßen
Solidarität
g-@@
deine
adopt
kaum
Bus@@
says
warm
currency
Privat@@
relationship
Dra@@
gebiet
rich@@
nu@@
Bra@@
gabe
sierung
in-@@
ierung
mainly
ear@@
Zusammen@@
evening
tru@@
allgemeinen
administration
Frieden
29
freie
nt
SA@@
Ö@@
initiatives
committed
erkennen
namely
gelegen
Systeme
increasingly
3-@@
Organisationen
ün@@
Ka@@
Armut
mor@@
installation
opening
President-in-Office
representatives
om
tour
freuen
vital
terrace
cal
maintain
Annahme
expressed
El
traffic
planning
Leute
Pan@@
sitting
talking
normal
tw@@
stand@@
ität
border
Wieder@@
proper
union
6.@@
ures
bald
Nun
Erstens
Cre@@
mission
produ@@
born
tation
sha@@
structural
ical
darstellt
Verfassung
endes
größere
stress
benutzt
improved
students
teil
vorgeschlagen
eindeutig
qui@@
haus
Karte
families
approved
serve
Agenda
ek
Sitzung
goal
rechts
Anti@@
sage
signed
correct
automatically
elt
Verpflichtungen
Sen@@
ws
comments
nationale
zusätzliche
Hause
ado
uni@@
industrie
Reise@@
competitive
powerful
onen
zes
People
Anstrengungen
Außen@@
Falle
cker
CH@@
dri@@
confidence
Online-@@
tourist
Funktionen
Win@@
DVD
zeiten
Costa
ah
Idee
Sub@@
Hu@@
infrastructure
plus
bil@@
Iraq
reduced
unbedingt
Da@@
globalen
rechte
India
decide
tionen
Hel@@
Tran@@
fan@@
beginnen
delivery
feature
Protokoll
entspricht
erenden
unemployment
überzeugt
protected
Fer@@
Enterprise
Kriterien
stärker
super@@
fun@@
photo
collection
Partei
ach
lt
administrative
ße
supports
cohesion
screen
Ca@@
Zustimmung
stu@@
Wahlen
400
4-@@
gesprochen
aktuelle
š@@
began
offen
ren
stable
format
extensive
covered
mindestens
served
Informations@@
Schul@@
schaften
emissions
Produktions@@
eter
langen
circumstances
rein@@
conclusion
sicherheit
а@@
gleiche
anischen
Ist
Wann
founded
Nations
well-@@
sources
Vereinbarung
mark
01
tions@@
Verwaltung
lich@@
contribute
sign
Ä@@
worth
Osten
Reformen
ational
functions
rei@@
pleasant
Office
genannt
AM@@
priorities
vorgelegt
iger
zug
electronic
likely
unterschiedlichen
selbstverständlich
financing
introduced
gezeigt
nor@@
UR@@
Terrorismus
defined
EL
prozess
Vorteile
min
Gipfel
plants
ban
Just
mittel@@
else
larger
effectively
att@@
Ak@@
gs@@
Anerkennung
Each
prüfen
white
encourage
cal@@
speaking
ised
Kre@@
glauben
stat@@
Fra@@
ral
understanding
gerecht
Greece
Inhalte
ensuring
dringend
DI@@
exist
Produkten
ars
erwähnt
crime
isch@@
ko
Qualitäts@@
mehreren
Technologien
Code
laws
cia
risks
tabled
verfügbar
schutz
ase
Stabilität
150
managed
wünschen
track
klicken
fresh
ame
Haushalt
positions
ved
wider@@
entsprechende
Homepage
Binnenmarkt
Kern@@
Straße
whom
listed
Cal@@
Mc@@
PL
opened
Besuch
Asia
ue
ik@@
Standard
Swiss
War
victims
erk@@
ple@@
detailed
wonderful
alisierung
At@@
played
ice
tä@@
wesentlich
Zudem
ha
han@@
Sektor
Produkt
participation
Ausschuß
Why
Kal@@
chs
Rec@@
Test@@
ara
....
2020
appear
E-Mail
stated
cul@@
Val@@
ti
berücksichtigen
erfahren
fort@@
agriculture
programs
D-@@
uli@@
hoffen
optim@@
Prä@@
shi@@
testen
Mark@@
IL@@
Schließlich
record
multi@@
Über
sam@@
las
wrong
animals
Plan@@
burg
Sommer
Comp@@
hinweisen
camera
nachdem
bal@@
discuss
arbeitet
erende
Volk
paper
kommenden
exactly
Frankfurt
möglicherweise
debt
bestimmt
transparent
work@@
sse
selected
1995
manner
De
50@@
Zunächst
limit
specifically
Then
siert
ki
si
becoming
won
beds
akzeptieren
о@@
Durchführung
regular
aimed
markt
Mitteilung
partnership
income
door
Nord@@
purposes
Sh@@
ME@@
Medi@@
Tier@@
Plan
linked
benutzen
zeit@@
Bor@@
metres
aktiv
ley
back@@
February
expected
vision
technische
erzielt
wants
votes
rü@@
represents
developments
ca@@
és
ang@@
discussed
sicherzustellen
rural
referred
Chance
bestehenden
fri@@
Anwendungen
fahrt
sec@@
Sol@@
le-@@
besonderen
fle@@
measure
id@@
Augen
zentrum
assessment
Sea
went
poli@@
tic@@
Medien
las@@
gelegt
getroffen
cy@@
Nicht
discussions
rop@@
dienen
laden
far@@
Fin@@
hor@@
Unterkategorien
ato
scale
Suche
marketing
euch
geändert
Lan@@
precisely
warten
fying
igen
sub-categories
erg@@
thousands
siehe
Einrichtungen
entry
trägt
acht
bedarf
DA@@
teil@@
fellow
Apartments
police
Rooms
spacious
Ski@@
shop
inside
cas@@
unver@@
bro@@
möglichen
sufficient
essen
co-@@
Nutzen
umgesetzt
ig
spend
Wettbewerbsfähigkeit
ration
zuletzt
Kan@@
medical
tures
person@@
enterprises
Haltung
otherwise
erfüllt
tisch
ish
ID@@
introduction
Standards
Bild@@
stoffe
LA@@
earlier
wenden
notwendigen
imp@@
arbeit
operations
finanziellen
Kontakt
kitchen
client
Kunst
Social
Cam@@
reich@@
gener@@
ft@@
followed
Middle
playing
Agreement
dient
liber@@
houses
budgetary
exclusive
Em@@
lig
Zeichen
Einfluss
stimme
facing
connected
closely
elegant
vari@@
alism
tional
achten
Monate
Bas@@
Board
Ausbildung
winter
anderes
voller
Vol@@
schreiben
represent
rent
á
lä@@
pol@@
eingerichtet
ots
jene
oll@@
stone
hu@@
losen
Tro@@
NATO
path
considerable
stei@@
festgelegt
Char@@
strengthen
select
jederzeit
atic
buildings
elles
ergreifen
Met@@
Most
vermeiden
ay
Best
ON
Switzerland
ner@@
hour
Christian
24@@
Gal@@
Super@@
ften
happen
cher@@
fla@@
beziehen
pat@@
Green
She
lö@@
save
Klein@@
institutional
zen@@
äu@@
blo@@
degree
spar@@
Kindern
Anspruch
shops
supporting
darunter
Pra@@
John
guidelines
shower
geeignet
Film
Schutz@@
lichem
rat@@
season
verfolgen
pe
ingly
Bro@@
Vielfalt
Meter
so-called
discrimination
dec@@
Human
stärken
pra@@
Menschenrechts@@
Wal@@
politischer
dlich
jeweils
purchase
Innovation
immigration
improving
sion@@
Gesch@@
remember
sionen
Zei@@
networks
stadt
Menge
ica
telephone
nisse
High
außer
7.@@
components
ark@@
daten
acts
handeln
angezeigt
erhöhen
Roma
wel@@
Video
Star@@
ey
Ü@@
hear
speech
sicherlich
ON@@
buy
C-@@
vern@@
Policy
Konzept
übernachten
erzielen
His
Schweiz
cards
experts
Pu@@
Webseite
broad
Czech
welcher
http
fun
average
entschieden
ckt
Leistungen
stellte
teilweise
Vertrags
cuisine
unbe@@
,@@
&apos;ll
aren
gem
entweder
funktioniert
fs
Spa
hon@@
ologie
gelangen
thinking
Familien
besuchen
fällt
ass
typical
zo@@
stock
Stand
tourism
spielt
suggest
schi@@
ire
Installation
char@@
Fischerei@@
wären
fung
verbessert
spricht
gave
Economic
seem
Familien@@
trust
pul@@
2011
properly
Sprachen
digen
reception
Name
presence
items
rit@@
wood
mü@@
Unfortunately
entirely
Because
IP
Februar
Instrumente
Jetzt
Abschließend
inen
relate
element
ction
Research
Wege
klare
werte
z.
sagt
provision
lungen
erleben
Warum
Stimme
ID
Pe@@
competitiveness
spirit
core
Verwaltungs@@
richtigen
spor@@
Pol@@
fied
Tätigkeit
rat
Veränderungen
ine@@
Kenntnis
Leider
Garten
ella
generally
Vereinten
uren
gebaut
ek@@
ef@@
rin@@
Berichte
dé@@
Arbeiten
Poland
spon@@
com
stes
difference
hab@@
refer
Click
Abschluss
kur@@
oo@@
presidency
lands
Forderung
Pas@@
ona
erstellt
bodies
bes
Fo@@
Modell
summit
display
hervor@@
feld
Initiativen
machines
IN
dro@@
tradition
actual
zing
Brussels
speziell
Forum
reasonable
ausdrücklich
Mitte
ently
authority
ian
Bürger@@
che@@
prior
ged
vorgesehen
Vergleich
wollte
domestic
advanced
coordination
politics
informed
Zeiten
Hor@@
fel@@
95
dealing
dagegen
schutz@@
betonen
Ob@@
Vielen
PT
Plat@@
Adresse
informieren
win
meetings
kom@@
character
district
hot
Street
Regelung
Teile
Engagement
Once
Abgeordnete
difficulties
cap@@
Irak
vehicles
plan@@
Ausgaben
parliamentary
animal
Internet@@
condition
Besucher
les@@
Great
Post@@
coffee
experienced
My@@
flexibility
appears
tt
täglich
durchaus
dete
bedingungen
möglichst
gewinnen
numbers
peaceful
applies
Musik@@
ze@@
zentrale
beschlossen
Transport
told
Herausforderung
All@@
estate
fisheries
becomes
cl@@
Dienste
vorhanden
sets
consideration
permanent
amen
Mitgliedstaat
spe@@
sem@@
lig@@
wenigen
spiel@@
ants
According
Angaben
Mer@@
Gel@@
lokalen
resort
sign@@
ye
haft
rus@@
Zeit@@
Breakfast
99
nte
Des@@
Dec@@
ath
Werk@@
mark@@
Ziel@@
dly
gefordert
origin
ory
Golf
tere
heiten
Klicken
Zeitraum
ty@@
Wer@@
Not@@
angeboten
Komfort
Pap@@
Währung
Indi@@
36
break
dank
Durch@@
Air
benötigt
courses
Mis@@
konkrete
Gas@@
sieren
Druck@@
stein
wahr@@
monetary
asi@@
Großbritannien
--
ingen
ink
ware
election
stic
easier
Hauses
freue
establishment
veröffentlicht
Jahrhunderts
Multi@@
lie
34
picture
economies
trip
ours
God
Dem@@
finanzielle
ash@@
Can@@
gruppe
starke
database
pla@@
analy@@
high-@@
threat
gem@@
ungs-
fixed
Gebieten
structures
führenden
combat
dliche
art@@
aspect
ige
Nieder@@
konzentrieren
practices
Net@@
ordnung
führte
Wissen
gewährleistet
leader
AB@@
bor@@
aims
ched
forget
geln
kulturellen
gene
weight
ination
etc.
Status
Dennoch
ships
tätig
erfolgen
attempt
Auto
models
darstellen
Terrasse
nächste
Comm@@
ker@@
Tour
arten
entstehen
sides
continued
Madrid
erscheint
val@@
Beitritt
south
län@@
spent
erstellen
stehenden
failure
tät
sou@@
Programms
Herstellung
Nachfolgend
48
combination
flow
myself
satz
Kingdom
club
AG@@
Online
buffet
dre@@
Worte
erklären
med
propose
exp@@
translation
seriously
glich
fund
Del@@
geschrieben
tage
Mas@@
dennoch
Sur@@
ery
ct
Einigung
Association
Rede
syn@@
Cap@@
sters
unabhängig
Antrag
Zweifel
cking
schönen
associated
detail
post
Kirche
steigen
е@@
sischen
ater
vis@@
attractive
air@@
Mio.
betrachtet
Santa
gruppen
oni@@
nis@@
Zweck
ited
Klima@@
promoting
schwierig
anyone
himself
ancient
Spezi@@
Res@@
Sie@@
ahead
relax
unterschiedliche
Forderungen
off@@
Kno@@
cke
Pakistan
д@@
welt
gegründet
differences
studies
Open
sta
reducing
reservation
Fran@@
brand
availability
finance
fähigkeit
web@@
Belarus
ester
anlagen
Sehr
announced
Kom@@
eingehen
grounds
IF@@
Analyse
beaches
Geld@@
gain
changing
ehr@@
reicht
98
umfasst
pre-@@
Universität
impossible
Regel
carefully
Österreich
sun@@
phase
Einhaltung
Mac@@
released
inform@@
Wor@@
Liefer@@
voice
gestalten
net@@
absolut
humanitarian
balanced
Stellungnahme
museum
clo@@
Fl@@
Mess@@
Aufnahme
geschehen
Ã
ca.
booking
shared
ziert
sho@@
charged
diskutieren
Stra@@
Firstly
uner@@
Kl@@
consumption
session
dangerous
cars
heraus@@
opposition
ring
Dollar
Sehenswürdigkeiten
Griechenland
immediate
kaufen
enst@@
nahme
einiger
names
producers
Uni@@
Irish
geleistet
happened
Private
ists
defence
agencies
learning
hands
Texte
architecture
statements
duty
books
liebe
EADS
race
dic@@
As@@
concrete
implementing
fire
keeping
Fonds
fore@@
band
läuft
Hal@@
schul@@
Tr@@
trading
gers
exhibition
usw.
ely
Gleichzeitig
wall
Abend
Trade
Achtung
England
Stellen
-F@@
regi@@
regionalen
iti@@
rück@@
Ki@@
zimmer
halt
istischen
ertes
Kommunikation
Health
river
Sil@@
arrival
inform
advance
folgende
pictures
eck@@
lets
truly
respond
Angesichts
Vielzahl
instance
Guest
article
37
amm@@
lia
raise
button
introduce
criminal
MA@@
Due
Prime
Sorge
profitieren
ländern
evidence
ée
described
Hersteller
Entwicklungen
Every
Fuß
Cro@@
recommend
Trans@@
don@@
Download
verfolgt
bit@@
Paket
Hintergrund
skills
ning
meters
Aspekt
Sport
improvement
garantiert
überprüfen
600
Prioritäten
cy
tten
registered
Dokument
one-@@
ising
Europeans
Links
zy@@
ick
elected
relaxing
Voll@@
Arten
recognition
guarantees
Casino
calling
passed
ISO
bas@@
port@@
feststellen
Polen
bt
genuine
de-@@
standing
spending
т@@
tik
possibilities
nearby
einander
continues
chi@@
verlassen
werke
exc@@
Arbeitslosigkeit
Gei@@
ei
sale
Very
System@@
Afrika
Rechnung
у@@
33
reliable
television
installed
membership
wishes
seite
kosten@@
CA@@
Rot@@
Ja
sort
weiterer
pal@@
Gast@@
unacceptable
combined
devices
Partnerschaft
Stil
persönlich
gef@@
firm
и
Mann
packages
hom@@
Rad@@
gutes
sichern
istische
color
campaign
Stärkung
ack
figures
bauen
ai
dor@@
adoption
empfehlen
Foundation
felt
miteinander
religious
1994
Seine
seek
fiscal
completed
reg@@
Nacht
übrigen
enables
bezeichnet
allowing
cat@@
unless
orders
territory
ausschuss
greatest
black
zeichnet
African
strongly
Indien
kept
insurance
Moment
gegenwärtig
sensitive
Kat@@
participate
tasks
gent@@
Deutsche
Gesetz
gkeit
angesprochen
IR@@
st-@@
tly
Leistung
Betrieb
sli@@
Grenz@@
Lesung
surrounding
Bedürfnisse
greifen
eingeführt
k-@@
ante
frei@@
•
obtain
chan@@
Problemen
aci@@
2,@@
manage
französischen
Zwei@@
Ideen
Manager
Formen
gegenwärtigen
Beschreibung
zeichen
ander@@
contain
cho@@
hingewiesen
unfortunately
erhält
Justice
Tradition
bars
zz@@
Titel
court
closer
überall
Gemeinsamen
Irland
tend
zufrieden
groß
flu@@
Aussch@@
definition
tiges
fear
anten
positiv
surface
fordert
Another
demokratische
beginnt
attractions
ering
cro@@
middle
ological
Barroso
Banken
absolute
desire
mag
guide
9.@@
geschützt
38
Sinn
ken@@
Player
0-@@
komplett
Elemente
coast
einsetzen
Last
Richtlinien
OL@@
tom@@
dad
danach
dedicated
Open@@
Priorität
compared
dy@@
unterstütze
Such
etz@@
alist
platform
Agrar@@
werk@@
TR@@
sun
Überwachung
window
Hamburg
großes
beauty
Dor@@
w-@@
signal
to-@@
leistungs@@
piece
listen
We@@
wagen
tens
Pat@@
fälle
Ter@@
800
lige
aufmerksam
keinerlei
Fisch@@
umfassende
Federal
Bio@@
indi@@
Vienna
vo
Turkish
Jeder
ausreichend
einfache
lo
kers
End@@
interface
bear
wasser@@
cle@@
Regelungen
forced
Geschäftsordnung
erforderlichen
corporate
ay@@
punkt
mehr@@
pun@@
marked
Hol@@
kes
route
enormous
claims
besitzt
Fortschritt
Meiner
größeren
hy@@
cm
gezogen
Bewertung
Anteil
Can
sämtliche
failed
spezielle
Verhältnis
bestätigt
biggest
beteiligt
Technik
ate@@
Märkte
55
gri@@
Kritik
Ei@@
vorliegenden
ön@@
Geb@@
individuals
an-@@
AL
dat@@
export
ands
square
perspective
haften
accessible
länger
Größe
storage
entitled
comment
09
assen
.de
luxury
Eastern
moving
publi@@
science
sonst
onto
licherweise
ically
tests
extended
Hin@@
Entwurf
Poli@@
ths
Stu@@
holidays
Greek
National@@
exercise
Home
Michael
ins@@
install
totally
device
Prinzip
story
Inn
wind
Hi@@
trag@@
nennen
Nevertheless
write
convinced
tal
rufen
Beschäftigungs@@
railway
schöne
ined
Brüssel
rau@@
Innen@@
wunder@@
mittels
Democrats
val
iel@@
vier@@
Verpflichtung
Ost@@
straße
urgent
hel@@
institution
internationaler
ends
Mil@@
memory
kostenlos
Yet
sation
fall@@
advertising
č@@
verbundenen
nten
Syn@@
hof
hergestellt
dem@@
mail
offensichtlich
bul@@
gelöst
host
garantieren
Globalisierung
factors
wil@@
ständigen
ssi@@
tou@@
discover
Agentur
Maße
cent@@
church
controls
vit@@
Haup@@
Unternehmens@@
flight
ath@@
starken
ward
engine
Mitteln
advice
drawn
organization
äl@@
Worten
Treffen
expensive
bath
ances
sel
Bush
1990
alismus
amb@@
führ@@
Betriebs@@
Far@@
Netherlands
Institute
initial
08
kraft
tz
Fotos
vers
Lake
bekannten
payments
ka@@
Austrian
karte
Kraft@@
disease
seh@@
organised
chosen
stattfinden
granted
dienst
Unterkunft
bahn
weapons
Altstadt
nation
Kol@@
zusätzlich
unable
beinhaltet
lar@@
Gründe
ams
Atom@@
fern
Studio
reisen
ener
schlagen
Company
Motor@@
Men@@
establishing
tig@@
Verkehr
Ir@@
Monat
limits
stan@@
outcome
ersch@@
ligen
onn@@
ero@@
oh@@
mögliche
übertragen
contrary
28@@
Festival
Umfang
deutsche
zählen
&apos;re
perfectly
linie
Kenn@@
Han@@
attack
zeu@@
wirken
Shi@@
update
Wa@@
р@@
6-@@
Tal@@
conclusions
Resort
adi@@
ane
print
Niveau
wesentlichen
Erklärungen
saw
tar@@
mas@@
Control
sell
solcher
tried
mountains
massive
posi@@
7-@@
Lam@@
zw@@
britischen
zufolge
rechten
Beteiligung
ot
Palace
Pen@@
neither
betrachten
ku@@
fit
rightly
Generation
furnished
ambitious
Thus
OT@@
commitments
verloren
water@@
zung
ov@@
Gott
Are
tical
zuvor
ierte
Foreign
valid
Volks@@
lag
Gegensatz
ining
finde
olo@@
vehicle
Risiken
background
Patienten
existence
eigen@@
entsprechen
Reise
successfully
berei@@
minister
Politiker
sat@@
relativ
ierten
fic@@
agency
convenient
maintenance
Sta@@
Europäer
Note
artists
Entschließungsantrag
ular
äch@@
gelungen
Schlüssel@@
komm@@
Option
Flexibilität
register
asylum
speziellen
Methode
pos@@
Data
stru@@
Bildungs@@
ust
Kompromiss
ther
honourable
claim
Gre@@
approximately
Palestinian
Eindruck
unto
Mitgliedern
Aktionen
ata
remind
fach@@
8.@@
candidate
Ereignisse
mei@@
para
ol
wider
older
gehalten
Mel@@
ç@@
tin
nation@@
07
Aussicht
sy@@
Sprach@@
gegangen
Weitere
achieving
TH@@
asking
Absatz
Q
Beim
rechtlichen
constantly
PHP
yst@@
abgeschlossen
cou@@
Latin
m2
surrounded
Peter
kul@@
lungs@@
ett@@
geöffnet
obviously
jüngsten
deliver
targets
monitor
Aufbau
ía
pas@@
Nachdem
intervention
O-@@
lichkeiten
manchmal
continuing
lake
utili@@
produktion
guter
daraus
Bis
unit
schafts@@
stoff
nom@@
goals
expression
mäßig
x-@@
category
Located
Wirkung
paragraph
dungen
Sor@@
chs@@
Air@@
foot
Begriff
Verständnis
down@@
Innen
Empfehlungen
independence
informiert
touch
IG@@
erhöht
xi@@
promotion
reden
Erde
colleague
outstanding
stal@@
stations
nationaler
Projekt@@
alisation
fort
Gebiete
d.
Card
wn
nung
loc@@
contents
Öl@@
Hon@@
hauptsächlich
laid
Na@@
title
aircraft
gets
в@@
Dan@@
Constitution
Haus@@
Eigen@@
rep@@
Bet@@
ch-@@
Realität
fen@@
deep
erfordert
wh@@
Lie@@
someone
öl@@
operate
suite
bildung
spiel
fte
Versch@@
Anlagen
Meeres@@
ideale
Start
ischem
Botschaft
photos
obligations
verk@@
vous
dia
Phase
factor
advantages
Obama
0,@@
origin@@
Eing@@
ching
Mand@@
Media
north
ri
dom@@
Zahlungs@@
staatlichen
yesterday
physical
III
Hoffnung
store
rech@@
96
Nutzer
Risiko
SI@@
beachten
Those
Farb@@
Führung
planned
contained
Zi@@
SE@@
Regulation
м@@
fühlen
0er
Tu@@
fication
genen
intensive
mobili@@
te-@@
binding
ord
boo@@
Fol@@
emb@@
counter@@
qualified
obvious
dge
berühmten
damals
Sar@@
ink@@
tsp@@
Inseln
looks
recommendations
öh@@
waiting
harmon@@
ari
1992
decades
wichtigste
mass
Grundsatz
Mus@@
PR@@
participants
Doppel@@
equality
nearly
allgemeine
Market
Agency
Tages@@
bringing
hafte
Teilen
denk@@
sobald
capable
geschieht
Vom
ports
situations
ks@@
Dom@@
ee
Off@@
governance
Both
expenditure
65
recovery
fal@@
gol@@
oral
consists
testing
globale
kar@@
Rel@@
staaten
Rome
lang@@
communities
putting
tab@@
jungen
führer
einzigen
setzung
pointed
seeking
Paul
landscape
Winter@@
hängt
merely
species
hilfe
regelmäßig
legung
MS
dimension
Beach
ECU
stoff@@
manufacturing
Süd@@
Hinweis
sions@@
plat@@
Einkaufs@@
wirtschaft
Firmen
Grunde
prevention
smaller
fonds
aufen
Bedarf
satellite
leads
servi@@
е
trifft
einverstanden
Ren@@
festgestellt
nachhaltige
AS
fy
Fraktionen
stor@@
Beihilfen
persönliche
Hauptstadt
Voraussetzungen
dynamic
н@@
read@@
trä@@
fi
Energy
substantial
Vorteil
Hälfte
Gegenteil
h.
Other
mechanism
medium-sized
Ebenso
Square
eli@@
Dimension
Is@@
disposal
sicht
soft
Korea
sprache
registration
s.@@
Pro
consistent
64
,00
liste
High@@
politisch
zugleich
turned
tag
mode
Ham@@
vorgeschlagenen
Welche
bewegen
Gri@@
etten
ré@@
entgegen@@
betroffen
Energi@@
Städte
Bestandteil
jährlich
contemporary
Summit
42
eck
Wettbewerbs@@
Regi@@
dos
fron@@
ge-@@
Any
guaranteed
browser
acceptable
causes
named
97
echte
Infrastruktur
extend
Out@@
anbieten
arms
Vertrags@@
kor@@
rapid
Veranstaltungen
meaning
glass
Prüfung
Auto@@
Global
spezi@@
el-@@
Ul@@
driving
schneller
brings
Teil@@
Fa@@
Landschaft
Royal
Klimaanlage
ables
praktisch
spa
wir@@
versions
traditionellen
aries
yl@@
serves
compliance
wodurch
my@@
determined
technological
Internationalen
examples
flü@@
alised
Holz@@
stabili@@
Rules
Farben
tte
Ruhe
Ausland
fand
Winter
resulting
spread
betroffenen
regeln
Angebote
Rau@@
beschäftigt
minim@@
.00
voran@@
treated
herzlich
Thanks
Sweden
Zahlen
Time
sia
wn@@
by@@
primary
erin
ately
hau@@
seven
yn@@
golf
The@@
19.
conclude
Kontroll@@
Island
woh@@
mut@@
ola
Details
object
van@@
enter@@
vorschlagen
Buch
Bon@@
Dienst
gewählt
Unabhängigkeit
na@@
Environment
bers
atische
optimal
Zimmern
spaces
pleasure
adequate
wait
Gesetzgebung
block
Erhöhung
liability
früher
stellungen
attacks
patients
fuel
Struktur
Aufgrund
Nu@@
explain
addressed
Martin
EU@@
temp@@
05
forest
JavaScript
vollkommen
Trotz
welchen
stoffen
weiteres
begann
OS@@
responsibilities
Material
gesellschaft
Stat@@
u.
kürzlich
nations
run@@
kun@@
junge
Tex@@
entwicklung
49
radio
copy
industries
Format
strengthening
association
ous@@
besseren
THE
strategie
diversity
extreme
Sonnen@@
Überprüfung
bot@@
asse
Charakter
multi-@@
zurückzu@@
nis
fällen
Alliance
Königreich
ming
einerseits
bedroom
alo@@
zählt
schools
Rom@@
diskutiert
talks
cer@@
Ratspräsident
nden
Bus
identity
Unternehmens
Serie
ba
reagieren
Stadtzentrum
IA
sky
fur@@
miss@@
Methoden
technik
Liberalisierung
F-@@
primarily
remove
Quali@@
Laufe
taste
nah@@
sum
entered
evaluation
Pool
Lau@@
temporary
GDP
Männer
urban
schön
notice
Nice
kinds
ion
Mindest@@
lots
gg@@
250
steel
Enjoy
ye@@
previously
thereby
Bewegung
Financial
bezieht
Dutch
ING
Gästen
anda
freiheit
liefern
requested
investments
Kr@@
multiple
es-@@
ball
bing
sam
Licht
consensus
quick
mb@@
digung
einzelne
accounts
Handel@@
imm@@
Mehr
Diskriminierung
ppen
Teilnehmer
Liebe
Prin@@
160
Romania
л@@
discussing
tour@@
ßt
delay
stimmt
Link
explo@@
spezifischen
abhängig
dest@@
squ@@
Absch@@
T-@@
mil@@
esen
Mad@@
ñ@@
delivered
bequem
ly@@
bereiche
26@@
Grenze
head@@
gone
cam@@
angeht
Netzwerk
Klimawandel
skin
Vil@@
Waren
ena
Fähigkeit
umwelt@@
ktions@@
85
Leistungs@@
Ordnung
1993
PL@@
leadership
barer
seitens
all-@@
weg@@
representative
Despite
8-@@
pension
Fälle
bildet
competence
willing
ele@@
pour
Suite
opposite
Pic@@
Dokumente
Westen
Wander@@
rail
Nicht@@
visible
intensi@@
Koordinierung
danger
Industri@@
sten@@
к@@
default
akzeptiert
Bank@@
feeling
Ansch@@
Tiere
Reaktion
Maria
ffen
IB@@
positiven
Brenn@@
Minutes
controlled
southern
manufacturers
holding
Freunde
atives
betont
prepare
tem@@
regionale
alle@@
Anpassung
Militär@@
preis
eng
tenden
dealt
spezifische
Versuch
Beh@@
leiden
gemein@@
Kombination
Lehr@@
letter
rati@@
dol@@
Unterschiede
Gefühl
sicherstellen
Willen
affect
SO@@
Amerika
set@@
Pop@@
wealth
urge
wirkt
PH@@
ländlichen
Day
speakers
forum
sanctions
moved
wards
demo@@
runs
PC@@
Dadurch
represented
Such@@
diverse
conduct
Stunde
compatible
ard@@
verlieren
í
Two
übernommen
breite
ez
presentation
Umständen
Wegen
tain
deb@@
destination
Vorbereitung
cies
höchste
Körper
significantly
Before
dlichen
Ther@@
Gesetze
sur
Telefon
fruit
approval
rechts@@
dritten
Find
06
Süden
eins
EG
andererseits
GB
Via
parti@@
m-@@
Zustand
noise
basiert
strength
quote
AT
serviert
nochmals
IP@@
ked
ehemaligen
author
Kam@@
dig@@
zustimmen
Anliegen
Kri@@
Nov@@
Diskussionen
ergeben
verstärkt
shape
recommended
Aqu@@
Strategien
Bahnhof
expertise
alter
tigkeit
Vielleicht
Vit@@
Eigenschaften
hinter@@
Teilnahme
sle@@
ül@@
Spe@@
arbei@@
z-@@
abo@@
launched
gewisse
Delegation
Roman
nötig
preise
locations
Einklang
wiederum
bericht
Anlage
PS
seien
Mul@@
improvements
ón
fr@@
charming
mechanisms
Mein
dig
Erd@@
Nutz@@
highlight
Bedenken
Studie
helping
knows
websites
relatively
39
ppe
Techn@@
bon@@
soweit
Support
length
amongst
fei@@
cing
Tru@@
Je@@
gestern
helps
mutual
derzeitigen
mental
haltung
2.
Kunde
micro@@
engineering
refugees
vielmehr
Freude
expectations
gens
zunehmend
reply
Verbraucher@@
consultation
abkommen
esti@@
Regierungs@@
zt
Schule
grün@@
sieben
Back@@
White
WC
verlangen
boat
covers
UT@@
Kollege
zieren
Lebensmittel@@
bedrooms
trees
Gener@@
bung
Poker
Spiele
Verfügbarkeit
experiences
interpre@@
en-
delegation
Rotary
Reg@@
ran
except
ile
schei@@
Hilfs@@
requests
sold
sian
keiner
Voraussetzung
umfassenden
Express
Munich
acting
sper@@
opp@@
MO@@
amerikanische
ED@@
Fern@@
X-@@
Che@@
ced
Sanktionen
unternommen
Wien
attitude
Antworten
dir
units
privacy
Book
schen@@
weltweiten
western
fill
Straßen@@
taxes
Sha@@
tritt
solve
genauso
historische
finding
Ob
anerkannt
lern
preis@@
behörden
wichtiges
werfen
discovered
Fas@@
lauf@@
dert
\
Kosten@@
Rou@@
tra
Prodi
respective
articles
Geist
trotzdem
kol@@
02
Formular
Ges@@
aging
aro@@
befassen
furniture
Plaza
qualität
Mak@@
faced
cri@@
din@@
Tod
Tit@@
stro@@
ausschusses
hilft
ghts
streets
03
tau@@
l-@@
Technology
deiner
ong
Standard@@
heraus
ala
th-@@
Allgemeinen
dishes
cheap
aktive
gegen@@
profit
höhere
dinner
Effizienz
20.
3D
Wider@@
fighting
Take
los@@
Grundrechte
drugs
Apartment
behandeln
Zugriff
trau@@
f-@@
obligation
ände
politicians
regret
Raum@@
Mikro@@
Sam@@
latter
appeal
Untersuchung
Architektur
elled
bio@@
spot
Karten
Verhalten
texts
kleiner
Sitz
rejected
ziemlich
Geh@@
hoher
Definition
temperature
Küste
tours
sorgt
ruhigen
ktive
appreciate
compensation
Berücksichtigung
fantastic
Vis@@
dans
River
Übereinkommen
700
Str@@
Power@@
mitten
healthy
dienste
gespielt
Industrie@@
kan
techn@@
walls
emphasis
jemand
Schi@@
lam@@
Prof@@
identi@@
constant
rely
Welcome
tran@@
konkreten
Schäden
120
enth@@
gsten
emphasise
Kapital@@
ativen
Kauf@@
recognise
Tatsächlich
arch@@
extension
Fil@@
centres
willkommen
tho@@
Gold
Beifall
exists
10.@@
ст@@
arrangements
betreffen
PDF
error
Wil@@
Grundsätze
producing
esses
niemand
sicher@@
ktion@@
menschlichen
reflect
1000
ania
erhältlich
buchen
ills
watch
Putin
Auftrag
cel@@
handling
0.000
figure
Britain
44
hum@@
Mau@@
User
gungen
equ@@
resolve
Chamber
objects
Sel@@
truth
Buch@@
Paper
cycle
wesen
21.
schätzen
ble@@
beg@@
suffering
xes
Video@@
not@@
Lebens
master
Verträge
Use
helped
ama
beträgt
operators
physi@@
intention
karten
duc@@
audio
dates
kat@@
kal@@
Liber@@
sinn@@
info
Pf@@
produkte
profile
ligh@@
ered
log
eiten
substances
entdecken
erscheinen
comply
lim@@
Letz@@
proof
Lord
Materialien
tern@@
schau@@
acy
Friedens@@
Camp@@
Bl@@
Bau
output
parallel
Flu@@
q@@
künftig
reich
Kategorie
Leitlinien
ared
cent
ads
ello
rup@@
Fernseh@@
whatever
OR
Maßnahme
Test
schließt
David
Norden
unge@@
NL
affairs
Eis@@
mobility
Verbrechen
kamen
omm@@
drawing
begonnen
e.g.
Pl@@
happens
eröffnet
sh
valuable
School
Werk
disaster
cross-border
chter
reserve
president
kulturelle
pping
Ambiente
gei@@
hostels
comple@@
ences
Bat@@
entlang
Nachfrage
Sand@@
tis
formen
confirmed
largely
creative
Anfragen
marks
inzwischen
Kind
AV@@
recognised
applicable
entertainment
tut
friend
Ohne
Wirtschafts-
sla@@
führende
Netz@@
Völker
naturally
glichen
Where
low-@@
ativ
Rule
manager
diseases
dungs@@
Wahrheit
renewable
Landwirte
Datenbank
Gol@@
album
43
trac@@
Sc@@
Old
Ph@@
wesentliche
ual
IC
Safety
Dort
Bil@@
ticket
assist
Fla@@
wissenschaftlichen
Mehr@@
yes
CO2
eigenes
Essen
zusätzlichen
Gedanken
opposed
brechen
Wo@@
RO
Absicht
Instead
ł@@
dining
exclusively
A3@@
italienischen
Erwartungen
kurzem
sofern
CS@@
staatliche
personally
tiv@@
row
institutionellen
chain
pose
spring
zus@@
ständige
Ferner
Sach@@
Zoll@@
näher
fraud
outdoor
interessiert
automatic
reali@@
stehende
millions
Schaden
Japanese
bus@@
inv@@
Strategy
best@@
haf@@
waters
fähig
mitteln
couple
rasch
S.@@
Rob@@
angemessen
Ministers
sauna
burden
eight
schönsten
PS@@
west
officials
ernst
USD
LO@@
audi@@
installiert
DA
separ@@
whilst
volume
leisure
impressive
Hau@@
fies
fail
ater@@
verändert
Mittelpunkt
atory
charges
zentralen
heavy
determine
arian
entwickelten
Swedish
tex@@
eye
spo@@
Rat@@
involving
serv@@
constructive
41
grundlegenden
B-@@
dige
ony
rt
Entwicklungsländern
27@@
Menschen@@
legi@@
lay
lab@@
offen@@
Fischerei
1991
Weiter@@
load
lon@@
exceptional
Stand@@
inf@@
Experten
urs
zieht
castle
lle
pieces
increases
natürlichen
tter
smus
insi@@
1989
195@@
schwierigen
Alternative
journey
tur
Dol@@
Good
neuesten
hervorragende
Angriff
ani
Schweden
criticism
stellten
Beratung
Shop
Autom@@
radi@@
offices
Einstellung
zweifellos
Schengen
freundlich
Berufs@@
2013
gefördert
Charter
BR@@
prove
amounts
besitzen
post-@@
equally
Emp@@
Alp@@
q
öffnen
dorf
Verbesserungen
lebens@@
kostet
Badezimmer
Bay
Beispiele
Tagung
ausgezeichnete
cold
perform
sup@@
fein@@
niemals
meist
Spar@@
Foto
HT@@
decorated
protecting
SM@@
Cli@@
Blo@@
Verkauf
laut
bestand
command
zuerst
George
leaving
Bru@@
kämpfen
Englisch
lovely
ght
gener
Europ@@
Normen
fassen
mandate
erheblich
Special
getragen
passengers
Dublin
M-@@
Klima
erweitert
ni
Los
sz@@
Over
eten
On@@
lan
bedeuten
speci@@
westlichen
east
offenen
residence
obtained
removed
mt
sätze
Regime
2012
Fenster
fran@@
hit
anlage
aden
doors
unmittelbar
peoples
atoren
tickets
directives
finished
ries
schnelle
prec@@
Stein@@
Komp@@
brief
weather
teilnehmen
kenn@@
organizations
involvement
Kab@@
ando
ky
parks
Wirklichkeit
medium
maschinen
weshalb
Nahen
blu@@
lied
treaty
password
resi@@
Ladies
erer
strategies
Jan@@
Canada
happening
father
bezug
täts@@
höchsten
edge
Bucht
einfachen
mi
entstanden
Hil@@
Lab@@
scht
Strukturen
starten
Fac@@
combating
proved
ziele
cc@@
Ant@@
Agrarpolitik
Rechts
Their
blue
seeing
ok
Unterschied
nahm
ausgezeichneten
kurze
allgemein
depends
München
berechtigt
gas@@
anische
parents
sexual
Park@@
Ausstattung
Kommunikations@@
trägen
maintained
fee
ú@@
DS@@
Boden
ain
blog
Websites
ktes
Van
verlangt
Kra@@
eyes
Bes@@
Waffen
rating
Sou@@
11.@@
kung
ele
remaining
contributions
teilt
räume
Ab
Sho@@
tenen
Lag@@
bemüht
grundlegende
stag@@
ap
produziert
USB
Tar@@
launch
Tourismus
chinesischen
creates
aufzunehmen
Ratsvorsitz
define
behalten
Croatia
Dusche
präsentiert
organisiert
fäl@@
colour
ursprünglichen
issued
Sü@@
connections
renovated
occasion
Cat@@
abroad
died
occup@@
ktiven
balcony
Halb@@
gate
AND
aktivieren
Maschinen
Empfehlung
communications
musste
bli@@
Dorf
Flash
Action
hall
wa
nam@@
welt@@
entscheidend
Vision
ought
Kin@@
discharge
precise
falsch
Dem
10-@@
tre
Hostelsclub
vorzu@@
meat
e.@@
drink
rein
Stellung
gewi@@
stance
preparation
R-@@
Anbieter
ett
Hy@@
weisung
Bestellung
spanischen
King
Führungs@@
spec@@
organized
Basi@@
rapporteurs
zugänglich
two-@@
GNU
Ausgangspunkt
bedeut@@
jahr
wünsche
divided
cru@@
restrictions
Ware
Jedes
Kredit@@
Robert
Revolution
riesigen
Pla@@
kla@@
reserves
requirement
assure
surroundings
vast
resolved
uss
behörde
markt@@
pack@@
Pflicht
Hafen
zig
Kamera
stream
lus@@
dritte
soci@@
tter@@
repeat
für@@
Überzeugung
doesn
Jahres@@
Problems
umzusetzen
weist
sm
iler
classic
Sat@@
Zentral@@
Get
collective
frie@@
messages
Kann
roads
abgelehnt
Kooperation
ix
Künstler
Airbus
debates
cable
atischen
elling
definitely
mus
46
gratulieren
owners
Oper@@
Massen@@
Fort@@
47
derartige
Krankheiten
ó
Immobilien@@
let@@
Projekten
hren
identify
Punkten
Trau@@
lautet
04
USS
verursacht
contracts
übernimmt
regulatory
Des
Lauf@@
п@@
returned
höher
dd@@
system@@
regularly
migration
owner
Bulgaria
Luxembourg
är
fehlt
Angst
Verbindungen
bike
betreffenden
schicken
opinions
UN-@@
focused
Steuern
pers
get@@
wirtschaftlicher
Mitgliedschaft
signs
investors
extrem
chn@@
ela
tierten
vorgenommen
characteristics
bild
dur@@
Abschnitt
Music
wirksam
erlauben
chtung
ham@@
atten@@
PRO@@
will@@
hardware
termin@@
funktionieren
resolutions
maschine
systemen
ome
Geräte
defend
Abkommens
anstatt
etzen
pfen
Lim@@
worse
zogen
Front
liberalisation
i.e.
schafft
extra@@
Harmonisierung
Boo@@
Gleich@@
driver
Under
vieler
freundliche
Post
ended
verschiedener
Erholung
tag@@
facts
Mac
Alter
Log@@
tene
intend
derung
faster
Hinter@@
erei
bekämpfen
Sy@@
Mach@@
EF@@
durchzuführen
Executive
künftigen
MEPs
stände
continent
komme
vollständige
verstanden
transportation
Java
properties
sische
Veranstaltung
glad
Gebrauch
hundreds
sehe
Farbe
recht@@
realistic
Black
AP@@
involve
conflicts
ques
fordere
carbon
proud
Beweis
Klasse
zuge@@
Ele@@
Eltern
mo
sichere
prakti@@
Marina
main@@
11.
isation
3.
ening
Sit@@
awareness
Will
Mich@@
OM@@
topic
ethnic
plätze
mul@@
Rumänien
ecken
echten
impression
Life
Fähigkeiten
Netz
Ausführungen
conducted
leben@@
Polish
Film@@
umgeben
ergriffen
52
V-@@
weiten
facilitate
mod@@
Gestaltung
joined
Ci@@
heating
plays
Sauna
Entwicklungsländer
wachsen
Partnern
starts
suites
Tisch
operational
isi@@
deli@@
gliche
Wird
jährigen
Verhandlungs@@
seat
sinnvoll
Ag@@
aufgefordert
deals
grow
understood
dynam@@
Procedure
¤
lift
tende
frequently
updated
Organ@@
displayed
Reform@@
Ausnahme
ino@@
Box
ima@@
settings
confirm
Assi@@
dam@@
bezahlen
teren
Gegend
license
depending
Strukturfonds
fizierung
kurzen
wers
Buchung
Ratspräsidentschaft
sole
familiar
performed
Ara@@
nachhaltigen
tigung
wär@@
iten
Konflikt
nights
printing
mus@@
enzen
wie@@
effectiveness
ê@@
Änderungsanträgen
Ausstellung
zahl@@
.000
schlägt
firstly
appointed
conc@@
sern
Element
mostly
Sommer@@
Mari@@
Staat@@
Las
bre
Übereinstimmung
klaren
int
annehmen
gespeichert
Wohl@@
Austausch
9-@@
Programmen
festival
komp@@
Award
Institution
Hü@@
customs
eth@@
machte
Nein
avec
Vorschlägen
satz@@
beschränkt
Thomas
submit
ac
frag@@
irs
Pass@@
Tom@@
aktiven
formed
ausgeschlossen
demanding
Nachrichten
iso@@
somewhat
bridge
clubs
schem
Schwerpunkt
Second
wasser
electricity
Den@@
ises
Messe
View
Hostels
.org
Stre@@
Analy@@
ron
Monetary
eignet
uting
ong@@
ession
ader
kop@@
answers
lec@@
verbringen
gestellten
Umgang
reiche
minority
interior
buch@@
Washington
kno@@
früheren
decision-making
ultimately
Geschäfte
aller@@
sicht@@
Beitritts@@
universal
notwendige
interessante
ce-@@
Fü@@
noted
pass@@
beglückwünschen
durchführen
sight
Straßen
Dat@@
Real
messen
module
Ausführung
library
blood
wan@@
51
Gentoo
ED
emergency
cr@@
Kilometer
Drittens
grant
U.S.
teams
gän@@
avi@@
Sun@@
ließ
Wind@@
Wissenschaft
jahr@@
Fri@@
techniques
ros
Schlafzimmer
wen@@
Führ@@
Hall
pm
ny
gold
inflation
meant
tes@@
Brazil
mä@@
tierte
ish@@
Mensch
personnel
Whether
verabschiedet
SMEs
ministers
träge
een
sodass
geo@@
sk
zulassen
dru@@
drivers
Framework
Maß
ton@@
visited
provider
Arbeitsplätzen
leiten
aria
sn@@
bern
massage
ash
parliaments
zugunsten
Übersetzung
hervorheben
stars
Drittländern
Deutschen
füllen
а
Identi@@
lounge
iting
welfare
sch-@@
Förder@@
cross
ize
einzigartige
islands
bestätigen
igkeit
zuständigen
hostel
hö@@
Mexico
li
kanischen
tically
angemessene
mar
accompanied
verhindert
reported
gehende
Kontakt@@
custom@@
ausgesprochen
fru@@
ausgesetzt
statistics
chemical
studio
prefer
career
Luft
northern
mol@@
breiten
grateful
ail@@
lists
bound
metal
russischen
Prinzipien
Gleichgewicht
theit
ado@@
well@@
Komponenten
follows
Planung
Cyprus
looked
modern@@
or-@@
Ide@@
contrast
zunehmen
vorher
farm
Radio
Besonders
viel@@
Faktoren
geprüft
Tim@@
subsidies
ased
valley
ont
liefert
Yes
Verringerung
windows
gearbeitet
Rund@@
Werbung
wann
Alles
relaxation
delighted
Firmen@@
passiert
rie@@
satisfied
Beziehung
Miss@@
Euro-@@
invite
wines
nungs@@
druck
famili@@
bom@@
Vereinbarungen
aufnehmen
indicated
woman
corner
72
deckt
Aut@@
presents
contacts
Beiträge
stored
orial
eastern
Gerichte
Saint
Kas@@
erst@@
Church
rou@@
unmöglich
Außenpolitik
BIP
ordin@@
percent
AU@@
Optionen
sor
Mur@@
cked
Wein
Gesellschaften
channels
terrorist
Sonne
kli@@
Plenum
Schluss
definiert
Fun@@
MySQL
flights
arrive
Wol@@
verringern
aw@@
sucht
ita
newly
Gemein@@
visiting
Handeln
functioning
corruption
î@@
Copenhagen
recommendation
tourists
höheren
feed
Chinas
Einstellungen
entsteht
pped
Les@@
exciting
Lö@@
dence
Jede
Festlegung
actively
judicial
kn@@
scheinen
vacation
hot@@
widely
belie@@
TO@@
Plattform
Budapest
match
visa
&apos;ve
Congress
Drogen@@
desk
Transport@@
entwurf
welchem
tea
Verb@@
elten
entrance
Gespräche
cosy
declared
Zimmer@@
imposed
Report
firms
pollution
verleihen
Band
direkten
careful
bert
Morgen
Wünsche
86
eckt
bilateral
dan
AK@@
Mün@@
showing
dal
IV
Währungs@@
burger
Edition
einhei@@
serving
schlecht
Individu@@
rock
Zusatz@@
explore
decken
Friday
2.0
nahmen
fläche
aged
afternoon
Bemerkungen
inhabitants
gert
soli@@
gardens
Prop@@
LE
ungefähr
involves
Brand@@
SS@@
cket
Straf@@
cont@@
Garantie
Prague
Neue
verändern
Act
rechtliche
tlicher
priv@@
sierte
eres
gebiete
configuration
Pet@@
Ausgabe
ska
demonstrated
erreichbar
gestaltet
speaker
expert
gran@@
vertre@@
turen
psych@@
geboren
winning
Trek
Noch
deck@@
dich
nieder@@
Adobe
ación
Earth
formal
d.h.
Regierungskonferenz
Frei@@
wollten
pris@@
reifen
Aktion
News
linien
gerichtet
occur
1st
erleichtern
Perhaps
ils
PO@@
heritage
ausgeführt
Sony
declaration
cast
eff@@
maintaining
Protection
nahezu
assets
werten
licht
sorgfältig
Minderheiten
ero
fördert
intellectual
fashion
competent
EG@@
Verteidigung
Zentralbank
aj@@
Design@@
Funds
Deswegen
va@@
Haftung
kürz@@
motor
Ed@@
Zwischen@@
spoken
Fru@@
Ziffer
transition
collaboration
begrüßt
reject
boot
erneu@@
Zer@@
ck-@@
Given
Stück
ongoing
betra@@
Justiz
Soviet
lebt
strict
gio
earth
oriented
Ster@@
conditioning
stellungs@@
remote
Baltic
functional
quarter
heits@@
u.a.
tennis
hinzufügen
resistance
demonstrate
Kurz@@
desired
Je
expansion
settlement
Sicher@@
plenty
brau@@
top@@
Verbot
Veröffentlichung
schauen
high-quality
Gründung
Poly@@
Sorgen
nat@@
präsentieren
kin@@
theme
12.@@
3,@@
gungs@@
solange
Arab
überzeugen
esch@@
Port
ère
fitness
films
channel
ч@@
bemühen
letztlich
bestimmen
illi@@
ade@@
EM
Golf@@
categories
rapidly
holen
tos
staat
bestehende
facility
oc@@
trafficking
Datenschutz@@
iner
hän@@
documentation
appearance
usual
Sollten
aly@@
perfekt
Rom
18.
è
heutige
я
stylish
Marktes
committees
Einbeziehung
Studenten
Kir@@
Or
department
Question
Chancen
generated
Rest
spra@@
passenger
organisationen
gezwungen
ausschuß
frame
ambi@@
recorded
Portuguese
Charta
regarded
Sozi@@
Sei@@
Werbe@@
gallery
Mobile
educational
PP@@
billi@@
Cri@@
artist
concluded
basi@@
verehrte
possibly
gewal@@
eing
klar@@
raw
Umfeld
früh@@
Skype
Ferien@@
ending
geltenden
Insbesondere
phrase
vil@@
KMU
justified
Jun@@
essen@@
betrieben
Bewer@@
sharing
Sollte
swe@@
54
Description
dokum@@
Hostel
glob@@
owned
Marketing
with@@
glaub@@
awarded
Applause
exit
zeichn@@
containing
cutting
bottom
einrichtungen
mas
Sim@@
Dru@@
Flo@@
Mobilität
lösung
standen
foundation
aches
moral
auer
ž@@
bet
James
long-@@
argument
replaced
erinnert
apart
G-@@
schlag
hair
vorlegen
Software@@
Balkon
Preisen
dependent
britische
mix
Obje@@
sil@@
lasting
J
sierten
and-@@
ös@@
beraten
Webseiten
St
emerging
dürfte
individuelle
Zielen
Tou@@
Mö@@
ond
planet
selbst@@
lokale
ferner
bereitet
Struktur@@
towns
mother
Tab@@
Fein@@
Eurozone
Plus
Identität
lauf
liegenden
treiben
Town
isen
zun@@
flows
Untersuchungen
å@@
tierung
wed
Nah@@
zieh@@
installieren
handel
Vorgehen
saving
jegliche
respected
MB
count
copyright
з@@
assume
overcome
Computer@@
Hungary
Versionen
CE@@
tested
Quar@@
Kurs
het
cian
Waren@@
Freiheiten
abgestimmt
minorities
def@@
routes
igung
credibility
tackle
Acc@@
TO
este
nit@@
verkaufen
App@@
tischer
spectacular
eds
König@@
IT-@@
Selbstverständlich
verdient
Mol@@
spann@@
Northern
Power
Puerto
Vorschlags
hen@@
entes
benen
crimes
erfolgreiche
partly
sich@@
wohnen
professionals
Training
heat
determination
Update
verhalten
Wachstums@@
ham
satisfaction
organisieren
prozesses
flat
Glas@@
einig
Fle@@
stronger
übrigens
Cha@@
Belgium
respon@@
ersetzt
acted
vorschriften
Newsletter
Fischer
Women
dance
Kräfte
puts
absch@@
nissen
tigt
entscheidende
Gest@@
sie@@
Werke
ups
programms
Bars
direkte
größer
Wir@@
jün@@
individuellen
Signal
Konsens
Ram@@
Gerichtshof
weite
transactions
occasions
ds@@
verurteilt
su
oni
Arbeitsmarkt
verkauft
vorhandenen
scheme
Politiken
yed
entwickelte
marquis
wat@@
kri@@
Mitarbeitern
stischen
ney
beziehungen
isch-@@
Asien
zentral
dens
wand@@
lik@@
immigrants
Verbreitung
sprachen
Studien
ency
einheitlichen
fon@@
manufacturer
alization
Network
reduzieren
correctly
Internet-@@
Oder
beruht
geräte
fans
ora
els@@
reform@@
replace
rali@@
gewährt
Pact
Parlament@@
Within
Fel@@
din
conf@@
Amendments
ards
Tour@@
inst@@
enjoyed
erhebliche
tables
vorstellen
äußern
weekend
cash
Kli@@
Zwecke
begrenzt
Anschluss
non
Well
leb@@
Show
arrived
bekannte
strategischen
Eu@@
bekämpfung
Besorgnis
sicheren
grundsätzlich
Desk
gerät
Krankheit
aussch@@
Nachricht
EX@@
CE
gehenden
genannte
kg
derer
still@@
housing
Wi-Fi
lob@@
Space
inklusive
liberal
moti@@
slightly
Israeli
Food
miles
Canon
ico
sending
corresponding
quali@@
rental
adults
Städten
ental
Vorstellung
digt
Don
Following
drinks
Champ@@
Einwanderung
mach@@
legitimate
Rezeption
peti@@
constitutional
tives
Wirk@@
Page
Cu@@
tan
EP@@
Gewicht
Sein
mö@@
räger
rap@@
Kapitel
industri@@
â@@
herr@@
solid
direc@@
kam@@
component
Freunden
angebot
beschäftigen
Flü@@
einfacher
Hohen
ruhig
genügend
Tan@@
losses
p-@@
ées
informationen
ski@@
youth
kungen
shares
Extre@@
·
distributed
Bedrohung
nunmehr
index
raten
drücken
ace
Medien@@
a.
suppliers
Taiwan
buch
funktion@@
aum
inde@@
banking
providers
5.
cuts
subsidiarity
sensible
Schulen
updates
angegebenen
versorgung
kel@@
S.
Videos
steuer@@
tun@@
offiziellen
division
destruction
vin@@
OF
mächti@@
orts
Dach@@
magnificent
cab@@
cial
Bemerkung
Zone
rising
constitution
jenen
wrote
Hier@@
sprach@@
läßt
identified
194@@
EB@@
Kap@@
effektiv
Asyl@@
aner
denden
Malta
egal
ais
taxation
Erzeugnisse
hängen
Fal@@
Benutzer@@
Systemen
Denk@@
Pack@@
üb@@
Without
Atlantic
zusammenarbeiten
addresses
maritime
ishing
dul@@
aussprechen
Selbst
elsewhere
globalisation
sprach
führten
behaviour
interpretation
considering
werken
jo
gebieten
ci
Son@@
kompet@@
fas@@
eventually
Auge
gesellschaften
vorbereitet
Wohnung
NI
außerordentlich
Europol
disp@@
fantas@@
71
gangs
wege
AN
exception
französische
leistung
Marke
kel
wear
Ton@@
tered
68
sü@@
verstärken
sin@@
Py@@
filter
53
VAT
poly@@
secret
gere
Ah@@
ensures
Zusätzlich
herrscht
erfolgreichen
gewonnen
milk
Termin@@
electric
AD
verbinden
exports
Kauf
thy
Fon@@
Schwei@@
par
aufs
etes
ump@@
domain
vic@@
battle
uss@@
Sektoren
lers
56
ented
Gran
modell
Kyoto
sit
straight
traditionelle
oning
a.@@
Kontrollen
Structural
Hungarian
preparing
Tau@@
tively
SV
but@@
virus
Gesam@@
encouraging
extraordinary
Neben@@
Sunday
pot
jener
Viertel
erhielt
Herz@@
unverzüglich
fs@@
sprech@@
Valley
schrift
Mission
erlebt
wissenschaftliche
generate
p.m.
decisive
arti@@
Blog
proposes
Thirdly
se-@@
courts
slow
eingereicht
irgend@@
wiederholen
Eisenbahn@@
Vel@@
verantwortungs@@
politi@@
aux
Wohlstand
drei@@
hear@@
liked
gste
motor@@
66
Balkans
ologi@@
scene
Kop@@
Islam
roman@@
deficit
vulnerable
Charles
Zy@@
Salzburg
disk
mali@@
filled
label
dischen
asser@@
citizen
Bereitstellung
army
Year
ständen
15.
prü@@
Einkommen
schm@@
didn
por
4.
everyday
Erstellung
Vorsitz
Like
op
enhance
vieles
Stimm@@
lock
topics
entscheidender
schu@@
vely
beigetragen
surely
fügt
Beschluss
succ@@
beschrieben
Lieferung
Schwar@@
Dre@@
bonus
transpor@@
rum
packaging
plenary
complicated
tief@@
Cer@@
substance
großem
portal
sugar
luxurious
university
UC@@
Pakete
Touristen
supplies
Roh@@
Verk@@
selling
finanziert
spoke
et-@@
anz
Einheit
Spaß
Nos
accurate
lessons
WLAN
Fuß@@
Lok@@
organ@@
ähnlich
virtual
invest
Client
kleines
ulate
inclusion
ites
Schw@@
sitz
kts
examine
Ungarn
§
gefallen
essi@@
Exchange
Theater
20-@@
directed
Männern
patent
connect
Assembly
bislang
fahrer
verst@@
proven
wunderschönen
Katastrophe
Blan@@
Schlussfolgerungen
kräfte
revi@@
zustellen
selben
Main
zeichnen
jährige
specified
elektronischen
bestimmter
CON@@
excessive
Garden
inger
dende
Thursday
therapy
Mangel
Cra@@
Gran@@
ride
beteiligen
videos
theory
enabled
derte
Person@@
Staates
gestattet
break@@
intern@@
COM
Ansichten
Dienstleistungs@@
impose
conver@@
suffer
verkehrs@@
vermitteln
integriert
Live
heben
ENT@@
Rap@@
concepts
mes@@
mot@@
Pul@@
stolz
itäts@@
wohl@@
dt
renowned
erzeugt
leistungen
ungser@@
absence
deposit
fly
zahl
einzigartigen
alized
kraft@@
teilung
forests
Genehmigung
Brasilien
ping
description
adopting
shipping
wechsel
asses
voraus@@
Sicherung
diplom@@
hundred
ahn@@
Einwohner
viol@@
greatly
gut@@
Kontext
ag
Ep@@
Digital
Mail@@
savings
Polizei
directory
Zwei
Vater
menschliche
unden
proceed
IV@@
schwer@@
BMW
Konto
verbindet
arm@@
ere@@
drug
ums@@
tei@@
abuse
solches
ville
Rechtsgrundlage
tin@@
Alt@@
traditions
anwesend
centuries
hervor
foot@@
handle
investieren
finish
carrying
angegeben
geschichte
59
Besides
applying
lad@@
departure
layer
heim@@
wonder
suggestions
arischen
gli@@
Bou@@
gained
Law
voluntary
Rein@@
Grad
akt
Modelle
schla@@
solely
häuser
proposing
eit
alities
Rus@@
raising
countryside
mischen
equi@@
villages
druck@@
subjects
aqu@@
Konsequenzen
kette
Games
Guests
ordinary
Lounge
Image
Rahmen@@
heim
Gold@@
absor@@
Bern@@
BO@@
Publi@@
vent@@
lined
Mail
formation
chem@@
Rich@@
Schiff@@
Provinz
Eli@@
trial
paying
duties
Pin@@
fern@@
supplier
AC
Cup
colours
Darum
Gam@@
Datei@@
Gerät
Vier@@
Boden@@
eingehalten
hör@@
wave
klu@@
artistic
Entscheidungs@@
Dauer
asing
wirk@@
Nummer
Fax
bereichen
representation
trend
Hamas
gh
philosophy
UM@@
freut
gewissen
Wo
Landes@@
museums
skiing
CS
ami
lieb@@
resul@@
geboten
trips
Len@@
Budget
Sig@@
thousand
fuer
beantworten
appeared
treat
Positionen
impor@@
fli@@
Boot@@
individuell
Tools
Prozesse
grös@@
pursue
Beschlüsse
nevertheless
consent
Holiday
ologischen
Trop@@
aut@@
förder@@
Betrag
aut
weitgehend
bereitgestellt
toler@@
della
comparison
manche
Kroatien
Arbeit@@
promised
trag
Maastricht
58
internen
Interessen@@
mati@@
ator@@
reservations
Wählen
receiving
liefer@@
beobachten
100@@
Hot@@
auto@@
bedeutende
Set
Glaubwürdigkeit
Elektro@@
wert@@
input
inmitten
invited
Egypt
sheet
ähnliche
Tel@@
pression
SA
wiederholt
Having
mussten
unity
obje@@
Rö@@
mechan@@
enswert
difficulty
sers
Schwer@@
ativ@@
tobacco
schie@@
zuständig
yo@@
ziel@@
root
Tool
punkte
vorge@@
Überlegungen
effizient
92
wechsel@@
vorher@@
award
bekommt
portfolio
-based
Ol@@
reli@@
bergen
dienst@@
lte
hr
non@@
nde
New@@
ests
Parkplatz
Völker@@
Kopf
Kulturen
ausgezeichnet
Strom@@
mittleren
gebildet
sozialer
uted
entspannen
Trotzdem
sichts@@
Islamic
Ganz
anbelangt
Kontakte
sus
pools
Wur@@
erstmals
Legal
б@@
smo@@
überprüft
Quality
Zivilgesellschaft
Reduzierung
suggested
Gegenstand
Bulgarien
Num@@
pes
wirtschafts@@
Hom@@
mid-@@
Suiten
langfristige
Gast
ring@@
laufenden
Situated
Castle
cle
probleme
prosperity
zäh@@
einbezogen
ema
pure
elec@@
Korruption
sicherung
Sum@@
niveau
stages
ursprünglich
Cur@@
Agriculture
dene
steh@@
Playa
langsam
disabled
Menü
Monday
productivity
wach@@
relative
ame@@
Gehminuten
pel@@
periods
fertig
arguments
optimale
Schlüssel
eat
Glück
Browser
Anlass
17.
quar@@
Professor
Geschmack
welcoming
oper@@
delicious
well-known
Blu@@
Mont@@
necessarily
ization
Körper@@
depend
reduziert
attempts
schwei@@
GN@@
steuern
moder@@
ading
CF@@
Gefahren
patient
confirmation
Budgets
Based
ols
akti@@
arbeits@@
spartner
Americans
them@@
wirtschaftlich
weak
Vorhaben
ov
Energien
sounds
cleaning
angesehen
symbol
anc@@
referendum
gerufen
AM
kes@@
wis@@
Christ@@
richtet
Kollegin
fang
import
Stoffe
leaves
hill
chtet
pä@@
religion
ET
Politik@@
dauert
Dafür
ail
Gewährleistung
kunden
Strasbourg
Konzer@@
tier@@
passen
addi@@
Eigentum
verteilt
utz@@
Akti@@
Offen@@
setz@@
pt
shot
esse
Sec@@
ausgerichtet
Lebensmittel
Finanzierungs@@
united
verein@@
AR
Gut@@
stern
auftreten
politically
DO@@
homes
steigt
stil@@
Mrd.
farming
ano@@
enabling
villa
Mes@@
overview
letztendlich
EA
Tip
Aufsichts@@
dream
betreiben
imports
Key@@
bank@@
Apple
projekte
täglichen
reit@@
Pil@@
permitted
lev@@
unds
istic
effe@@
eil
oria
Tem@@
©
ura
lobby
satisfactory
Tele@@
änden
Wes@@
40@@
behaupten
schnell@@
sau@@
Place
ausgegeben
entschlossen
inos
gründen
allocated
regul@@
Schiffe
estimated
88
Bahn@@
Verlust
constitute
Gerade
bach
Tat@@
stä@@
societies
verkehrs
zukünftigen
Wirtschaftswachstum
verfügbaren
unforgettable
ersetzen
4,@@
rare
dict@@
Kriegs@@
Master
stab@@
Federation
supposed
succeed
killed
Bul@@
Bade@@
ration@@
ling@@
fü@@
ori
significance
Facilities
Programm@@
ign@@
publication
